/*
 * Copyright 2016 Andrea Solazzo, Emanuele Del Sozzo, Gianluca Durelli, Matteo De Silvestri, Irene De Rose
 * 
 * Licensed under the Apache License, Version 2.0 (the "License");
 * you may not use this file except in compliance with the License.
 * You may obtain a copy of the License at
 * 
 * 	http://www.apache.org/licenses/LICENSE-2.0
 * 
 * Unless required by applicable law or agreed to in writing, software
 * distributed under the License is distributed on an "AS IS" BASIS,
 * WITHOUT WARRANTIES OR CONDITIONS OF ANY KIND, either express or implied.
 * See the License for the specific language governing permissions and
 * limitations under the License.
*/

#ifndef _PARAMETERS_H_
#define _PARAMETERS_H_

#define REAL float

/*Convolutionals*/
/*Layer 1*/

#define FM_0 1
#define DIMW_0 16
#define DIMH_0 16
REAL input[FM_0 * DIMH_0 * DIMW_0];
//Kernel
#define FM_1 6
#define KW_1 5
#define KH_1 5
//Pooling parameters
#define PW_1 2
#define PH_1 2
#define PSQ_1 4
#define PS_1 2
//Weights and bias tensors
REAL w1[FM_1][FM_0][KH_1][KW_1] =
{
{
{
{0.56669324, 0.04914852, -0.57761520, 0.34932987, 0.51695999},
{0.10032955, 0.51975320, -0.56715777, -0.65322917, 0.61976862},
{0.81988923, 0.33953119, -1.08787163, -1.08210763, 0.90654543},
{0.72364186, -0.81086952, -0.98198924, 1.03238216, 0.67868554},
{0.20484891, -0.51826204, 0.38762489, 0.21799108, -0.79193010}
}
},
{
{
{-0.19081651, 0.07943570, -0.06003660, 0.50637874, 0.57220466},
{0.55015065, 1.00924382, 0.68370874, 0.29910292, -0.01658027},
{-0.92407190, -0.99042714, -0.94770469, -0.36401856, -0.50661243},
{-0.44336100, -0.54777242, -0.33610825, 0.11167386, -0.02078700},
{0.20393448, 0.66518320, 0.30573661, 0.20095966, 0.02995215}
}
},
{
{
{0.07839702, 0.33276035, -0.32808133, -0.94877188, 0.13946985},
{0.01119296, 0.20990819, 0.27800984, 1.00365420, 0.76876996},
{0.80455570, 0.32040826, -0.15067569, -0.20309838, 0.26135217},
{0.82661243, 0.09264023, 0.24617098, 0.37112166, 0.57939367},
{0.02774855, 0.59774679, 0.03893929, -0.62562644, 0.04672582}
}
},
{
{
{-0.04177205, -0.39843671, -0.52734791, -0.00747708, 1.40191097},
{0.25956679, 0.82859165, 0.08523079, -1.79555558, -2.08753109},
{-0.37149778, 0.56312049, 0.26457450, 1.96336300, -0.92426357},
{-0.74075397, -0.05308320, 0.23684633, 1.16019842, 0.32788346},
{0.23643546, -0.57511977, -0.52918792, -0.29597096, 0.15002629}
}
},
{
{
{-0.68561320, 0.35576311, 0.13048532, -0.15534411, -0.35351834},
{0.88017730, 1.09472222, -0.32834595, -0.61336699, -0.35095106},
{-0.05474467, -0.90441973, -1.03150593, -0.27853944, 0.00980986},
{-0.12382255, -0.31397069, -0.23007075, 0.10236532, 0.59135869},
{-0.01284886, -0.09534692, -0.44493564, -0.11868069, -0.10103547}
}
},
{
{
{-0.22968915, -0.35225315, -0.31707041, -0.30950354, 0.16151943},
{0.42067798, 0.27394443, -0.01753804, 0.25053959, 0.64464441},
{0.33008860, 0.49091412, 0.46702096, 0.17554415, -0.16837524},
{-0.57843057, -0.55917440, -0.58049325, -0.38572393, -0.46644636},
{-0.99102136, -0.37791360, -0.10845011, 0.11478733, -0.24765263}
}
}
};
REAL b1[FM_1] = { -1.20890164, -0.68392953, -1.52669743, -0.55051794, 0.03727088, 0.00272843 };
//Output tensor
#define DIMW_1 12
#define DIMH_1 12
REAL o1[FM_1][DIMH_1][DIMW_1];
//Pooling output tensor
#define PDIMW_1 6
#define PDIMH_1 6
static REAL p1[FM_1][PDIMH_1][PDIMW_1];

/*Layer 2*/

//Kernel
#define FM_2 16
#define KW_2 5
#define KH_2 5
//Weights and bias tensors
REAL w2[FM_2][FM_1][KH_2][KW_2] =
{
{
{
{-0.88260353, -0.10881986, -0.18388421, -0.29487869, -0.03370765},
{-0.30952475, -0.29239481, -0.12858012, 0.27753815, 0.31865354},
{0.05403215, -0.23270601, -0.09984928, -0.07281311, -0.14845481},
{-0.14791616, -0.13383155, 0.09569372, -0.00780471, -0.15534281},
{0.77424195, 0.35289246, 0.25433062, -0.02246964, 0.55450814}
},
{
{0.59797510, -0.02312728, -0.05113155, 0.04368494, -0.59701439},
{0.30412516, 0.05665023, 0.08634195, -0.10116900, -0.25614474},
{0.29859441, 0.09299386, 0.01192540, 0.06419674, -0.00759040},
{-0.06394128, 0.52497935, -0.20243718, -0.08318675, -0.15570476},
{-0.52724191, 0.42721440, -0.13849792, 0.02544219, -0.13687662}
},
{
{-0.99435490, -0.08244186, 0.04817237, -0.23970847, -1.07161684},
{-0.55778346, 0.16346167, 0.20517712, 0.07037464, 0.08443503},
{-0.02377396, 0.06818000, 0.15789704, 0.02266769, -0.49156934},
{0.13240399, 0.08331768, -0.28426630, -0.32523844, -0.45054151},
{1.10475433, 0.25566264, 0.88000174, 0.26839018, 0.67442320}
},
{
{-0.10569066, -0.04355441, -0.22460657, -0.10328309, -0.29817886},
{-0.01597395, -0.14619581, 0.04017908, 0.15003008, 0.00293111},
{-0.13075601, 0.19792532, 0.03850496, 0.10188977, 0.21783067},
{0.01778127, 0.21129798, 0.05998210, 0.01486550, 0.19264426},
{-0.11150110, 0.05896078, 0.07725140, 0.34420922, 0.59662031}
},
{
{0.05078512, -0.48559548, -0.37998819, -0.00654990, 0.25875669},
{0.20732000, -0.11170658, 0.07334904, 0.05413783, 0.26252789},
{-0.02321471, -0.09175374, 0.03003962, 0.37887016, 0.03420495},
{-0.07768335, 0.04907909, 0.01938006, 0.00596889, -0.05559121},
{-0.05737991, -0.11757662, -0.19193364, 0.21581187, -0.24358818}
},
{
{0.83146100, 0.04126105, 0.30847341, 0.25755556, -0.17208276},
{0.64392925, 0.12387735, -0.14428597, 0.07924483, 0.29328312},
{0.17239487, -0.12728215, -0.02126113, 0.13281623, -0.19038645},
{-0.39105564, -0.03449702, -0.14072678, -0.04893490, -0.02853775},
{-0.67425525, -0.08290260, 0.01622770, -0.25339420, -0.39841695}
}
},
{
{
{0.16793601, 0.07660125, -0.29293288, 0.44660586, 0.22535788},
{0.07961969, -0.04747703, -0.14509123, -0.24086420, -0.24920192},
{0.13538023, 0.06964969, -0.32378124, -0.20520883, -0.20782717},
{-0.13134050, -0.16406347, -0.34005618, 0.17017180, 0.35540591},
{-0.04030996, -0.06948837, -0.08002188, 0.14421889, 0.23705037}
},
{
{0.04042030, -0.08427564, -0.23553337, 0.11581949, 0.40172746},
{-0.31294606, -0.44290889, -0.18740397, 0.21040414, 0.07209599},
{-0.39739365, -0.32433116, -0.09056624, 0.27920056, 0.13813907},
{-0.34421358, -0.17224843, -0.01353403, -0.14308794, -0.05029854},
{-0.13171872, 0.25211154, 0.09065188, 0.16702993, 0.03958485}
},
{
{-0.21645296, 0.16084460, 0.06061237, 0.47857386, 0.67096612},
{-0.11333754, 0.02333410, -0.13371797, 0.26232502, -0.01477161},
{0.29557849, -0.06563499, -0.15390705, 0.08841623, -0.06059687},
{-0.26843212, -0.57677009, -0.28364305, -0.15402546, 0.13342635},
{-0.37430668, -0.18463127, -0.23363656, 0.05127986, 0.08130886}
},
{
{-0.06193044, -0.12046485, -0.20721948, 0.15146600, -0.22854699},
{-0.77885451, 0.01450584, -0.17456050, -0.05522331, 0.09589209},
{-0.38888071, 0.02961782, 0.07440036, 0.09605299, 0.55940285},
{0.17475009, -0.12217575, 0.18755894, 0.19320633, 0.50335026},
{0.04788507, -0.08062621, 0.06181436, -0.11075734, -0.37360230}
},
{
{-0.14594148, -0.16974868, -0.18949387, 0.05151432, -0.17297940},
{-0.04954798, 0.21724332, 0.07057814, 0.08370766, 0.20138384},
{0.28833067, 0.42466276, 0.10460591, 0.06026714, -0.32949693},
{0.17195400, 0.01345520, -0.05343235, 0.01340015, 0.14429992},
{-0.68026564, -0.36771241, 0.23288047, 0.05090648, 0.07460965}
},
{
{0.17513611, 0.25531383, 0.12661508, 0.22897670, 0.34855697},
{-0.27305931, -0.03200978, -0.02074022, 0.27621837, 0.15728170},
{-0.30488723, -0.05546280, -0.06504664, 0.17713673, -0.00561763},
{-0.06673103, -0.03928006, -0.05006335, 0.30982331, -0.19530811},
{-0.52267870, -0.36154584, -0.07030173, -0.03633861, -0.10609232}
}
},
{
{
{0.04952846, -0.01404283, -0.15733878, 0.04446470, 0.32277390},
{-0.01778046, 0.12563299, -0.05079584, 0.18238011, 0.17625763},
{-0.19162945, -0.11014925, 0.05251004, 0.12963762, 0.46852899},
{-0.30323540, -0.24634880, 0.10511026, -0.00186614, 0.44831050},
{-0.55191464, -0.16518127, -0.04184011, -0.40206618, -0.16425336}
},
{
{0.33060897, -0.02870576, -0.01511112, -0.10875644, -0.60482992},
{0.12139295, 0.04309192, 0.03498239, -0.05226470, -0.16406436},
{0.31683226, 0.03685514, 0.03318432, -0.03912099, -0.23594363},
{0.37403018, 0.21799083, 0.11895140, -0.06425959, 0.03051947},
{0.18333462, -0.07049643, 0.23163732, 0.15994393, 0.34066201}
},
{
{-0.14147362, -0.00533652, 0.22756040, 0.32954532, 0.00435696},
{0.07337937, 0.11586132, -0.06648108, 0.04429928, -0.21816347},
{0.01400786, -0.12811233, -0.12788789, 0.03452683, -0.34343717},
{-0.01032512, -0.46526939, 0.08875423, -0.01229992, -0.01818248},
{0.23518941, 0.26655543, -0.10807131, -0.12577828, 0.20257219}
},
{
{-0.40926505, -0.17799052, -0.16057539, -0.35850044, -0.36672932},
{-0.46354820, -0.11328963, -0.27586991, -0.18371945, -0.10699460},
{-0.12679917, 0.18426293, 0.06457696, -0.17972770, -0.01021147},
{0.22598733, 0.02877260, 0.32718001, -0.09913646, 0.10049563},
{0.38211937, 0.27194643, 0.14780796, 0.03413826, 0.44812477}
},
{
{-0.37699667, -0.09612782, -0.26008597, -0.38257516, -0.28823614},
{0.32132003, 0.30734068, 0.21586916, -0.34678815, -0.01804143},
{0.43854933, 0.04015756, 0.22037638, 0.06965021, 0.12455721},
{0.00959638, -0.21454270, -0.05978508, 0.36277999, 0.01539907},
{-0.24731667, -0.18890313, 0.05640858, 0.06875533, -0.38293560}
},
{
{0.37102889, -0.06230636, 0.38307654, 0.09348501, -0.20002547},
{0.47509447, 0.01366581, -0.06636093, -0.03284582, -0.29399606},
{0.47647277, -0.09099006, -0.14221923, -0.07311550, -0.04511008},
{0.65163546, -0.10638640, -0.13608217, 0.05986540, 0.03990017},
{0.31161936, -0.05417223, 0.23173304, 0.26665282, 0.23461272}
}
},
{
{
{0.15868169, -0.01306351, 0.11751745, 0.07993272, 0.09941889},
{-0.34938161, -0.04102860, -0.03343020, -0.07322345, 0.24961635},
{-0.25063766, -0.23340393, -0.11256443, 0.03001961, -0.31446578},
{0.06480083, -0.38447497, -0.46582823, 0.00318413, 0.18294699},
{0.09276741, 0.32735410, 0.21915077, 0.33819659, -0.22083005}
},
{
{-0.30008263, -0.13799362, -0.33514083, 0.15258704, 0.04846595},
{-0.18434935, -0.06738988, -0.02374620, -0.10807324, -0.16855352},
{0.09603682, 0.01685466, -0.00320709, 0.06433413, 0.00123101},
{0.15224236, -0.08237269, 0.26969336, 0.12205656, -0.32304709},
{0.71918054, 0.00438857, 0.22227491, -0.10681513, -0.46855272}
},
{
{0.67146151, 0.36883749, 0.34653482, 0.29694708, 0.23935838},
{-0.29104717, 0.08874423, 0.13049385, 0.15784930, 0.25260875},
{-0.44652727, 0.08984449, -0.00422556, -0.02576483, 0.10737466},
{-0.03218752, -0.08592638, -0.03034499, 0.01823843, -0.45693428},
{-0.59100690, -0.17180293, -0.43441647, 0.03859168, -0.54176477}
},
{
{0.58701347, 0.40358769, 0.17129975, 0.36251019, 0.45688751},
{0.46556962, 0.18569375, 0.09393853, -0.04058630, 0.00046560},
{0.12249999, -0.04556720, -0.04810031, 0.04474757, -0.24682691},
{0.55053326, 0.01291376, -0.03582986, 0.01953784, -0.42427816},
{0.18732242, -0.42729836, -0.08440394, -0.21542740, -0.88597047}
},
{
{-0.09339247, 0.09733607, -0.03605531, -0.02024917, -0.26671306},
{-0.40924126, -0.40167142, -0.06749342, 0.23917337, -0.09019376},
{-0.42195812, -0.09855244, 0.12794114, -0.17611129, 0.27841954},
{0.08035073, -0.59053318, -0.28033281, -0.10176301, 0.13034659},
{-0.04311828, -0.20613174, 0.45376582, 0.00083782, 0.50602326}
},
{
{-0.45863444, 0.01144342, -0.14750928, -0.03063125, -0.09726375},
{-0.21410819, -0.04092823, 0.35121875, 0.11510743, 0.19572632},
{-0.28025978, 0.22886479, 0.06003120, 0.24250118, 0.08895493},
{0.51410649, 0.17438897, 0.04538254, 0.17777883, -0.44847073},
{0.30626783, -0.27740251, -0.18665467, -0.04299607, -0.22673799}
}
},
{
{
{-0.13880483, -0.14570910, 0.15842640, 0.45404282, 0.51734319},
{-0.21564688, 0.09006596, -0.29736632, 0.43041207, 0.80346252},
{-0.09825350, -0.19769321, -0.12362222, 0.04574651, 0.13126168},
{0.08391340, -0.20434980, -0.25247135, -0.24171759, 0.10563833},
{-0.22182446, 0.02819858, 0.12977878, -0.22960249, -0.11024892}
},
{
{0.41285655, 0.21536448, 0.20347048, 0.23366736, -0.50387881},
{0.31382013, 0.13278725, -0.07352862, -0.01069096, -0.15892016},
{0.04007723, 0.14826601, -0.16105914, 0.00043636, 0.38449018},
{-0.13925142, 0.08201880, -0.07137937, 0.11713612, 0.06963438},
{-0.62525527, -0.19580879, 0.11777373, -0.07283331, -0.13097765}
},
{
{0.50494450, 0.29109286, -0.07655390, -0.26774590, -0.28466610},
{-0.35355512, 0.28901981, 0.10184631, 0.19813348, 0.46008043},
{-0.29564319, 0.07359061, 0.07382522, 0.17915156, 0.60183330},
{0.04673086, 0.08518944, -0.04322682, 0.28115783, -0.27168276},
{0.04379943, -0.32218200, -0.34675225, -0.16713061, -0.50270852}
},
{
{0.44023995, 0.33699269, 0.22539832, 0.16086559, 0.72494280},
{0.05388031, -0.43375630, -0.10447946, -0.23892152, -0.10483639},
{-0.30893073, -0.28121076, -0.20531616, 0.06603532, -0.31829962},
{-0.00306370, 0.01390921, 0.19500837, 0.02189900, 0.15998834},
{-0.18572074, -0.30198007, 0.09097408, 0.18512424, 0.06289357}
},
{
{-0.04402967, -0.55741737, -0.20234702, -0.19565295, -0.75030940},
{0.10703848, -0.11212764, 0.19500403, 0.56431268, -0.18228264},
{-0.04701397, 0.05882028, 0.39832955, -0.01718889, 0.01649427},
{0.55468088, -0.01979980, -0.21061417, -0.04920609, 0.29568568},
{0.46498281, -0.27325803, -0.18988359, 0.15153283, -0.13356601}
},
{
{0.77070824, -0.00989958, 0.26072146, 0.18333901, -0.93757759},
{0.36921353, -0.33821907, 0.13315712, 0.04647216, -0.18544730},
{-0.40943407, -0.34313734, -0.15706366, -0.02283200, 0.28111411},
{-0.13713741, -0.00735157, 0.29232009, -0.01740129, -0.31895532},
{0.16056389, -0.22021475, -0.16878129, 0.01165822, 0.24843579}
}
},
{
{
{-0.12592834, -0.23832989, -0.12184195, 0.24501882, 0.30849658},
{0.11298199, -0.20991372, -0.30112247, 0.05269573, -0.03599336},
{0.09724420, 0.05417392, -0.19189964, -0.03487366, 0.04776500},
{0.15231310, -0.12354369, -0.14636313, -0.16052561, 0.00371063},
{-0.11704363, -0.32451686, -0.06241378, -0.03389243, 0.02582649}
},
{
{0.73629525, 0.09118628, 0.03936276, -0.09618973, -0.16669871},
{0.15193345, -0.21170239, -0.14897943, 0.04612118, -0.02562143},
{-0.08141672, -0.13660366, -0.20242776, 0.00137094, 0.14495240},
{-0.17311340, 0.02683655, -0.10231489, -0.08340431, -0.17231636},
{-0.33626022, 0.05369269, 0.05019678, -0.14807199, 0.12963722}
},
{
{-0.41720550, -0.05008093, -0.40464691, 0.27119958, 0.45545548},
{-0.14574482, 0.21596176, -0.08598749, 0.07598716, 0.09241121},
{0.07407853, 0.32207761, -0.21906572, 0.07802695, 0.06990057},
{-0.11157969, -0.17044472, -0.40787707, 0.05757127, 0.05152427},
{-0.07499215, -0.20491339, -0.12118860, -0.01912346, -0.04327356}
},
{
{-0.03008373, -0.09703012, 0.04233093, 0.11026534, 0.19971996},
{-0.66688397, -0.40925326, -0.14636979, -0.02350107, 0.06575476},
{-0.59034362, -0.06516424, 0.06029056, 0.02622339, 0.06182964},
{-0.17472425, 0.03231669, 0.08469287, 0.08310555, 0.30926836},
{-0.13392350, 0.02242796, -0.04477334, 0.17715716, -0.04130410}
},
{
{-0.36796297, -0.48441198, -0.06014792, -0.11738141, -0.74444754},
{-0.05001347, 0.13218313, 0.04458641, 0.12191303, -0.11552552},
{0.29509378, 0.34137357, 0.14329905, 0.04953946, -0.06705079},
{0.24487774, 0.16813233, -0.09205303, -0.11417968, 0.06792281},
{-0.19940044, -0.18840652, 0.04086168, 0.15726234, -0.10219612}
},
{
{0.64437360, -0.18228902, 0.06452994, 0.08170673, -0.49569133},
{0.20831110, -0.23229083, -0.11869263, -0.06967785, -0.16875898},
{-0.15131581, -0.23797401, -0.16416445, 0.02608293, -0.15935537},
{-0.12041786, 0.03420468, -0.08989149, 0.09441250, 0.06693734},
{-0.00540569, -0.15356669, -0.02696781, 0.03363412, 0.06781232}
}
},
{
{
{-0.27570152, -0.40804629, 0.06394864, -0.28411459, -0.18789030},
{-0.10185658, 0.18612465, 0.14366961, -0.01635165, 0.07579782},
{0.08947678, 0.24795312, 0.08552889, 0.14517433, 0.09487385},
{0.62255797, -0.10350422, -0.10944510, -0.08830883, -0.33626254},
{-0.44179542, -0.13415798, -0.36307291, 0.02466106, -0.32967678}
},
{
{0.52325930, 0.00895416, 0.11659853, 0.35082783, 0.81320243},
{-0.17638606, -0.32100554, 0.15919914, 0.00290791, 0.14797612},
{-0.36167969, -0.05964773, -0.11706401, -0.16984492, -0.08323400},
{-0.09753915, 0.04971107, -0.11914570, -0.07959250, -0.29265711},
{-0.24529591, -0.11680046, -0.19674585, -0.12773695, -0.09200493}
},
{
{0.64204795, 0.16683428, 0.52478387, 0.77158885, 0.26137389},
{-0.07508279, 0.09231071, 0.12503231, -0.21638827, -0.01003673},
{-0.51045208, -0.23655761, -0.19756338, -0.24993825, 0.17568633},
{-0.73431305, 0.29670821, 0.19144898, -0.02926844, -0.00830899},
{-0.23498372, -0.00914526, -0.38472262, -0.02238927, -0.14986297}
},
{
{-0.11451186, 0.03679210, 0.25135517, 0.47829956, 0.18313726},
{0.19126119, -0.07593180, -0.01732532, 0.02754855, -0.10949961},
{-0.07398753, -0.23210607, -0.06183494, -0.16976126, -0.12127117},
{-0.12213584, -0.04245650, -0.33475019, -0.03433957, -0.01267561},
{-0.72725464, -0.00517807, 0.15072061, 0.13291989, 0.26418917}
},
{
{-0.17216462, -0.31880823, -0.27386823, -0.13593311, -0.24818567},
{-0.04856293, -0.26256038, -0.14639193, 0.08240814, -0.55282540},
{0.18895132, 0.09317850, -0.16758625, -0.02500729, -0.10538495},
{0.04249295, 0.06096370, 0.16399839, 0.10748479, 0.09655872},
{-0.21821334, 0.54934464, 0.10421047, -0.11391894, 0.36613732}
},
{
{0.13037871, 0.48223240, -0.07864547, 0.38754220, 0.39089803},
{0.06261442, -0.10320588, -0.03032681, 0.06843939, 0.00012724},
{-0.23334822, 0.07912243, -0.52043179, -0.23509881, -0.45699993},
{0.16341303, -0.17858203, -0.18462639, 0.16329933, -0.23299768},
{-0.59518018, 0.10691504, -0.22060408, -0.03777429, -0.08026049}
}
},
{
{
{0.00375556, -0.03660064, 0.04478533, 0.35887709, 0.51338518},
{0.05834440, -0.20050610, 0.03261671, 0.18180532, 0.24188183},
{0.09975699, -0.32254676, -0.30635186, -0.06118013, 0.03925865},
{0.05271040, -0.00523134, 0.16470832, 0.05029053, 0.25325690},
{0.20658855, 0.16377596, 0.11935970, -0.08976258, 0.19954658}
},
{
{0.43483021, 0.03214058, 0.15138328, 0.02304043, -0.04439492},
{0.06092399, -0.08084287, 0.07802218, 0.21416497, 0.10282314},
{-0.19563760, -0.07595710, 0.03434644, 0.01249550, 0.17992409},
{-0.36870009, 0.13386855, -0.15622596, -0.15188431, -0.02736470},
{0.01350122, -0.08632399, -0.09155966, 0.26217561, -0.07496154}
},
{
{0.19656638, 0.23169505, 0.18299899, -0.07957373, -0.47218616},
{-0.08994616, -0.06076525, -0.12297446, -0.13658701, -0.01087841},
{0.25969594, -0.19373394, -0.21112617, -0.20552818, -0.13103440},
{0.34989688, -0.08807239, -0.33150991, -0.04387864, -0.06765934},
{0.61713204, 0.17538770, 0.27440526, 0.06682956, 0.33127671}
},
{
{-0.10305528, 0.25757527, 0.14109257, 0.10649456, -0.01563739},
{-0.11954875, -0.14854538, 0.23858287, -0.09327313, 0.22207658},
{-0.17232782, -0.08750316, 0.24605335, 0.01745173, 0.32303513},
{-0.10794595, -0.13602335, -0.15056809, 0.05020005, 0.16841542},
{-0.15557461, 0.15305175, 0.09744770, -0.05835824, -0.23065321}
},
{
{-0.12717539, -0.41854065, 0.00082281, 0.03591272, -0.31820116},
{-0.01432105, -0.00062875, 0.21282150, 0.30160977, 0.01547076},
{0.23396628, 0.18412143, 0.15098630, 0.12325596, -0.03060228},
{0.28199523, 0.27800193, 0.18394328, 0.13085508, -0.06751696},
{-0.23875702, 0.04198407, 0.30590395, 0.38207697, -0.06112363}
},
{
{0.47442504, 0.10139973, 0.02769453, 0.42531824, -0.28455435},
{0.07384203, -0.22400856, 0.06914850, 0.11642749, -0.04425728},
{-0.29042362, 0.04311273, -0.04484731, 0.28572812, -0.19292708},
{-0.28754866, 0.07767200, -0.22362610, 0.07188622, -0.17749158},
{-0.36343741, 0.05839471, 0.01520964, 0.05986140, 0.07541968}
}
},
{
{
{0.07933133, -0.03202324, -0.09627798, -0.47452394, -0.41505089},
{0.35984894, -0.17390998, 0.07712511, -0.19148602, -0.20596589},
{0.30126999, 0.17417712, -0.01116788, -0.10646292, 0.02274837},
{-0.05271672, 0.22616874, -0.15078679, -0.01626265, -0.03296318},
{0.19972903, 0.03171765, -0.02156345, 0.12849687, 0.33794815}
},
{
{-0.46292233, -0.05391459, -0.00545574, -0.21201694, 0.05686345},
{-0.14182115, -0.14443515, -0.16463694, -0.03449022, 0.18942437},
{-0.13550748, -0.13038881, 0.01670677, -0.04395274, 0.05561283},
{-0.28859510, -0.33675422, 0.00566631, -0.25894038, -0.04522852},
{0.00118659, 0.13687177, 0.04020345, -0.04596522, -0.31225402}
},
{
{-0.21211772, -0.24009474, -0.22470511, -0.04595823, 0.19884563},
{0.21835299, 0.00661590, 0.14811123, 0.08424455, -0.34551226},
{0.16577043, 0.23959266, -0.13245985, -0.10047048, -0.10838640},
{0.07946236, 0.34632867, -0.09219508, -0.02147049, 0.02060741},
{-0.03734885, -0.15364512, -0.12295129, 0.20613305, -0.16403037}
},
{
{-0.33177309, -0.16918134, -0.10266217, 0.08302154, 0.07559523},
{-0.22941451, -0.01705184, 0.11772252, -0.00437774, 0.33259211},
{-0.18022185, -0.06539870, 0.02588044, -0.01247452, 0.31333604},
{-0.17149653, -0.05342545, -0.31791719, 0.16361849, 0.12969690},
{-0.12571262, -0.02551841, 0.05837108, -0.09944015, 0.08311490}
},
{
{-0.49260114, 0.17592010, 0.21270968, 0.09491374, 0.16564862},
{-0.26383367, -0.04738105, -0.16882690, 0.01082653, 0.19905152},
{-0.19180752, 0.16963490, -0.08252520, -0.06770839, -0.00750729},
{-0.10868893, 0.03938292, 0.17379170, -0.02180148, -0.04073928},
{-0.11551185, 0.26548453, 0.20333151, -0.27697690, 0.09431400}
},
{
{-0.53691805, -0.17600260, -0.16613374, -0.15688712, 0.09647298},
{-0.29062049, -0.10255194, 0.01742316, -0.18830650, 0.09631285},
{-0.27198039, 0.23706272, 0.15039109, -0.06120593, -0.03664432},
{-0.19159722, 0.13303995, 0.02930977, -0.00497443, -0.02420335},
{-0.09419994, -0.09032386, -0.08775068, -0.23400035, -0.13060758}
}
},
{
{
{0.10002231, -0.05419119, -0.35038387, 0.12717237, 0.55450799},
{0.03536459, 0.03074305, -0.21034542, 0.24261635, -0.11362055},
{-0.31572177, -0.07419414, -0.00245146, 0.17791598, -0.00588949},
{-0.20490911, 0.00683488, 0.06555704, 0.55148858, 0.54401235},
{-0.23827400, 0.01941254, -0.18290896, -0.64839942, 0.20495859}
},
{
{-0.02025831, 0.12078119, 0.25768380, -0.02329909, -0.78149614},
{0.02882875, 0.13089974, 0.23946333, 0.07636286, -0.26211852},
{-0.17874283, 0.01325768, -0.04725722, -0.13291034, 0.12099631},
{0.11829766, 0.38393213, 0.31268561, 0.23797856, -0.08723813},
{0.02403030, -0.21507814, -0.02580040, -0.39310600, 0.30867406}
},
{
{-0.27470784, -0.16807900, -0.17102138, 0.11104322, 0.66007084},
{0.21273617, 0.16408422, 0.09414998, 0.09767188, 0.35595558},
{0.27575876, -0.12921182, -0.13833106, 0.21730519, -0.04011235},
{0.10715227, -0.69829035, -0.15895539, 0.17683002, 0.08038569},
{0.03497304, -0.10638453, -0.30634845, 0.00749366, -0.00843412}
},
{
{-0.02107353, 0.25398442, 0.42893386, -0.11179496, -0.10241359},
{-0.10370482, -0.18740685, -0.26125571, -0.06350274, 0.10316942},
{-0.14942883, 0.01899105, -0.19132501, -0.02155439, 0.12021202},
{0.37666670, -0.02120752, 0.21458017, 0.04821320, 0.19265019},
{0.03992104, -0.29536745, -0.09146402, 0.06001908, -0.26050661}
},
{
{-0.29777205, -0.22186527, -0.03250042, -0.20587906, -0.26203499},
{0.01794782, 0.22093660, 0.04075807, 0.03538253, -0.20402275},
{0.16291945, 0.12591934, 0.29338303, -0.25531484, 0.07785539},
{-0.04371837, -0.32968940, 0.17610022, 0.08945258, -0.05050006},
{-0.05186594, 0.19117686, 0.02759312, 0.09712005, 0.22915462}
},
{
{-0.47227127, -0.02530017, 0.13742279, -0.28979424, -0.89126398},
{-0.00056654, 0.01097219, 0.03930887, 0.06467763, -0.10534001},
{0.09616533, 0.17248284, 0.15292036, 0.13457231, -0.21830581},
{0.12147248, -0.11748836, 0.19237961, 0.07208344, 0.00180061},
{0.11834240, -0.07617734, 0.04597800, 0.03607974, 0.13437835}
}
},
{
{
{-0.28269199, -0.10133381, -0.08777019, -0.15132793, 0.31194421},
{0.23961106, -0.19699633, 0.06750994, 0.18116025, 0.17272894},
{0.15480496, 0.26701427, 0.11186581, 0.17922281, 0.00478922},
{-0.32835315, -0.00560875, -0.11060255, -0.70638433, -0.28309783},
{-0.24227699, -0.40894655, -0.01239960, 0.07059393, -0.00356101}
},
{
{0.40886699, 0.02213456, 0.02530826, -0.15065127, -0.61709800},
{0.50623527, 0.00830884, -0.00620005, -0.22195844, -0.33658007},
{0.35676133, -0.00656945, 0.03643498, -0.18856922, -0.08153062},
{0.42638363, -0.14840501, -0.04878635, 0.00728525, -0.05620063},
{0.02172537, 0.33492222, 0.06425666, -0.11652474, 0.49203498}
},
{
{-0.74897256, -0.44076896, -0.03086719, -0.13982160, 0.44771743},
{-0.04045793, 0.08761934, 0.07407997, 0.22454901, -0.12779622},
{0.25018092, 0.40945195, 0.09480992, 0.02909625, -0.15208223},
{-0.11558459, 0.30360414, 0.20968293, -0.04030271, -0.16354616},
{-0.38862158, -0.19679974, -0.23477185, 0.14612682, 0.22530662}
},
{
{-0.23759258, -0.23032314, -0.15625471, -0.08422059, -0.27634632},
{-0.31013735, -0.19125171, -0.32147614, -0.21194757, -0.34766095},
{-0.05197023, -0.02278582, -0.34437083, -0.23015862, -0.44296148},
{-0.16580774, -0.04881090, 0.04673436, -0.11660548, 0.21297715},
{-0.00244802, 0.17670442, 0.39904344, 0.07384819, 1.31836784}
},
{
{-0.19634008, -0.39887419, 0.09727402, -0.07963951, -0.06680115},
{0.07576948, -0.02391561, -0.29118926, -0.06426665, -0.30748910},
{0.00983184, 0.08019586, 0.12032349, -0.07753986, 0.23182259},
{0.22893332, -0.22819200, -0.26412876, 0.07396989, 0.10948111},
{-0.05831479, -0.18812162, -0.19789927, -0.30152726, -0.30157294}
},
{
{0.22960218, 0.07558207, 0.26803101, -0.29603255, -0.31878262},
{0.39694447, -0.04731773, -0.08733933, -0.24281899, -0.50268827},
{0.31851193, -0.31156107, -0.31507992, -0.15005251, -0.02306768},
{0.42748682, 0.00265110, -0.02531554, -0.01861300, 0.08509492},
{0.64961538, -0.04587601, 0.07709237, 0.17562877, 0.33226409}
}
},
{
{
{0.22791059, -0.24059868, -0.18346250, -0.04423976, -0.21735427},
{0.27898162, -0.24392050, -0.23983390, -0.26378521, -0.37232106},
{0.28007432, 0.12248316, -0.16681850, -0.24673113, -0.02952356},
{0.18556113, 0.12705596, -0.00187702, -0.17799697, 0.02892542},
{-0.24305238, -0.02061362, -0.13959070, 0.25976596, 0.22740226}
},
{
{-0.28192564, -0.10119230, -0.45869852, -0.58886740, 0.02583843},
{-0.05798928, -0.11758082, -0.29448353, -0.07712965, 0.24557972},
{-0.18710682, 0.00570388, -0.09219278, -0.09527400, 0.07186990},
{0.02206474, -0.17980518, -0.13030029, -0.04078635, 0.14144832},
{-0.19467686, 0.15692489, -0.00250858, -0.02107431, 0.25174765}
},
{
{-0.50354652, -0.54850386, -0.70407792, -0.22546913, 0.18278949},
{0.24534289, 0.10698040, 0.26837183, 0.14503251, -0.02447072},
{0.16974843, 0.18871081, 0.26869101, -0.14712804, 0.01352264},
{-0.47658991, 0.10336530, 0.28688259, -0.07251163, 0.04452523},
{-0.44471944, 0.17499596, 0.10573790, 0.01700217, -0.06823959}
},
{
{-0.19763641, -0.39150680, -0.40574531, -0.32835506, -0.19531631},
{0.14900851, -0.15505533, 0.03808064, 0.08944308, 0.20606308},
{0.11717922, -0.22840699, 0.15373936, -0.04856525, 0.41457291},
{-0.44402291, 0.12651935, 0.12002529, 0.12374323, 0.01617276},
{-0.29954928, 0.06397667, 0.08791475, -0.05315766, -0.08840682}
},
{
{-0.30557701, 0.20213539, 0.23550551, 0.11524266, 0.08347923},
{-0.24234161, 0.13580849, -0.20996589, -0.22131092, 0.34024016},
{0.17218668, -0.12693875, -0.01058085, -0.21909431, 0.01236116},
{0.16251943, 0.05615577, 0.04874007, -0.27302994, -0.53415294},
{0.09880269, 0.22359908, -0.30402536, -0.09275059, 0.12779416}
},
{
{-0.44311000, -0.24349655, -0.22860081, -0.21764894, -0.01362345},
{0.14139463, 0.02275592, -0.25820077, -0.12894115, -0.05537091},
{0.05126655, 0.03905315, 0.06116848, -0.10998500, -0.02929351},
{-0.29057446, -0.03075259, 0.14084727, -0.17829535, 0.41286919},
{-0.30945190, 0.14351690, -0.04558290, -0.11285549, 0.08470271}
}
},
{
{
{-0.02914438, 0.33420106, 0.21654453, 0.26777209, 0.63837214},
{0.14874155, 0.06507315, 0.36676993, 0.37327223, 0.34198050},
{0.03363295, 0.09041000, 0.02075508, -0.07056425, -0.23630388},
{-0.36482807, 0.11104765, -0.25399369, -0.23516280, -0.22213522},
{-0.06174109, 0.10822459, 0.30923755, -0.11331309, 0.31142101}
},
{
{-0.45135729, -0.24146010, 0.02034883, -0.22455322, -0.51696254},
{0.05606494, 0.15060305, 0.26011459, 0.20488056, 0.00941292},
{-0.20239317, 0.13251357, 0.35816128, 0.15286808, 0.16094324},
{-0.30023509, -0.50463174, -0.11021074, -0.25154442, 0.13467250},
{-0.27366326, -0.03188209, 0.24733780, 0.36785082, 0.37847829}
},
{
{-0.02713375, -0.00411106, -0.16855548, -0.61800072, -0.44895211},
{0.38042308, 0.01752545, -0.07267468, 0.12168529, 0.00171983},
{0.69225517, 0.53191811, -0.14117480, -0.00219940, -0.16500307},
{0.64406040, 0.30730093, 0.02720863, 0.17846321, -0.11885221},
{0.13712314, -0.27259058, 0.19208405, 0.27007920, 0.27591335}
},
{
{0.06399148, 0.01083445, -0.03584196, -0.36803395, -0.36813475},
{0.02145357, 0.09718521, 0.05935612, -0.06109649, -0.27430795},
{0.21209472, -0.03009844, -0.29332125, -0.02546799, -0.05991612},
{-0.21670717, -0.29314759, -0.23218506, 0.18787053, 0.27479793},
{-0.22071947, 0.11922603, 0.50618600, 0.39464143, 0.58510907}
},
{
{0.27329378, 0.40808648, 0.24502418, 0.16995504, 0.20768376},
{-0.28553156, -0.10465368, -0.04656498, 0.32057357, 0.37219062},
{-0.56283250, -0.21421600, 0.06781554, -0.04589184, 0.59602650},
{0.03558566, 0.09969509, -0.03689365, -0.10266113, 0.26240151},
{-0.21246212, -0.00561683, 0.03693355, -0.31610518, -0.38031495}
},
{
{-0.11971323, -0.07993660, 0.26737057, 0.05439875, -0.23105427},
{-0.44445047, 0.20797401, 0.15383596, -0.11665186, 0.01562548},
{-0.39162536, 0.10031468, 0.15057595, 0.08502206, 0.22479512},
{-0.16914675, -0.03602638, 0.19568863, -0.09118620, 0.17835808},
{0.04593101, -0.06136746, 0.06209323, 0.13472281, 0.24093079}
}
},
{
{
{0.03688916, -0.02232082, -0.36729384, 0.17164012, 0.63024689},
{0.02555374, -0.12562476, 0.14845528, 0.01833751, -0.07630630},
{-0.12178531, -0.03383509, 0.22742044, 0.25040323, -0.05039649},
{0.03613839, 0.27702618, -0.07333468, 0.11997801, -0.22894523},
{-0.27489217, -0.19811829, -0.05155114, -0.16980997, -0.50458856}
},
{
{0.31776263, -0.45752610, -0.73040284, -0.77589461, 0.24919947},
{0.45810433, -0.04354368, -0.02253413, -0.06290253, 0.04255973},
{0.38789458, -0.05237736, -0.24446812, -0.25526709, -0.05544876},
{0.25922935, -0.26700328, 0.05849827, 0.06485882, -0.12824126},
{0.26139342, -0.18203702, -0.05600703, -0.01610022, 0.21746826}
},
{
{0.45486832, 0.18433309, -0.04354104, 0.10605976, 0.67279119},
{0.39749746, -0.21642328, -0.35602792, -0.50082270, -0.08288641},
{-0.05118174, -0.30705913, -0.30556544, -0.16903236, -0.18451896},
{0.14686298, 0.18953888, -0.07390653, -0.02840466, 0.09110910},
{-0.44676763, -0.27398568, -0.29788930, -0.22648606, -0.19071986}
},
{
{0.43057709, -0.07553719, 0.08625090, 0.02255872, -0.28514394},
{0.30842589, 0.06160358, 0.21531281, 0.17086750, -0.53333360},
{-0.21454130, -0.00987991, -0.23892992, 0.18543085, -0.22709305},
{-0.25791003, 0.22528193, 0.33950524, 0.21511798, -0.28892121},
{0.15938148, -0.00590522, -0.17036317, -0.05241052, -0.12484562}
},
{
{-0.30841496, 0.08132885, 0.05105420, -0.15802193, -0.32711201},
{-0.37614968, -0.28255243, -0.54954453, -0.43518046, -0.30083648},
{0.13146834, -0.01528185, -0.07775053, 0.07466131, 0.06346809},
{0.34717141, 0.21288098, 0.49578476, -0.30643305, -0.04061821},
{0.43514527, 0.51019160, 0.07229631, 0.07799830, 0.31740265}
},
{
{-0.27852534, -0.06001978, 0.02473787, 0.05103275, 0.35876266},
{0.04909288, 0.03968615, -0.14568756, -0.33359658, -0.10495686},
{0.13492641, -0.05849963, -0.23032533, -0.04289918, -0.16864638},
{-0.04879302, -0.34487649, 0.06754688, -0.05901141, 0.24814872},
{0.63179641, 0.07598295, 0.05432431, 0.13793411, 0.17074262}
}
},
{
{
{-0.02027498, 0.03469777, -0.02385323, -0.69588536, -0.36738519},
{0.04917455, 0.02730035, -0.02629684, -0.15480703, 0.04086779},
{0.27350688, 0.12401857, 0.29956556, 0.31601312, 0.44480574},
{-0.00062080, 0.21899792, 0.12876355, 0.09896205, -0.25668801},
{0.08248748, -0.03127045, -0.14753928, -0.08220094, 0.04844070}
},
{
{0.63747049, -0.02486206, 0.38129702, 0.21238719, 0.35037938},
{0.19111811, -0.01313457, 0.14908682, 0.01779205, -0.01869241},
{0.23380881, -0.21220926, -0.03230352, -0.03379070, -0.22125048},
{0.01823701, -0.12780388, -0.06464783, -0.18870392, -0.25160910},
{0.06217367, -0.01464935, -0.04994480, -0.23744778, -0.18324229}
},
{
{0.13360808, 0.20144072, 0.58040662, 0.07502107, -0.06830973},
{-0.20323866, -0.22933373, -0.17849502, -0.40254846, -0.38648800},
{-0.07894296, 0.04414213, -0.06934961, -0.09969484, -0.27401641},
{0.39682505, 0.44635747, -0.28821407, -0.37950326, 0.11073333},
{0.47194042, -0.17208707, -0.04117944, -0.03086032, -0.01801336}
},
{
{-0.11072320, 0.04720820, 0.18272171, 0.56981590, 0.32688891},
{-0.41100353, -0.14986084, 0.05675482, 0.09085106, -0.01100535},
{-0.64249877, 0.22909377, -0.10731260, 0.03696585, -0.22057036},
{-0.19984080, 0.00136412, -0.32591024, -0.07632680, -0.00579690},
{0.06116523, 0.06907294, -0.26886039, 0.03632503, 0.14116039}
},
{
{0.11120638, -0.47717244, -0.05253218, -0.23048510, 0.06891515},
{-0.12725944, 0.04301692, -0.13815230, -0.20201917, -0.58136723},
{0.16060352, 0.32533647, -0.21282844, 0.12894269, -0.16987351},
{0.01433805, 0.23698987, 0.29919798, 0.33588593, 0.22794394},
{-0.12871816, 0.11215520, 0.19570207, 0.06568982, 0.18176634}
},
{
{0.45999482, -0.02502617, -0.07968201, 0.18756020, 0.38898507},
{-0.04412631, -0.11216656, 0.00569246, -0.17380334, 0.01866687},
{0.07026118, -0.12128629, -0.11989810, -0.09211522, -0.28017372},
{0.11928362, -0.07638009, -0.21943076, -0.00687165, -0.04006927},
{0.41766116, 0.01826438, -0.29241163, -0.00110840, -0.29390761}
}
},
{
{
{-0.18919231, -0.10246219, 0.04435962, -0.12496848, -0.29231389},
{-0.07563865, -0.00858437, 0.10148871, 0.13441779, 0.65876528},
{0.21185298, 0.00146429, 0.10514181, 0.20879465, 0.35036118},
{0.21574810, 0.12050718, -0.34625924, -0.04518246, -0.04341205},
{-0.10968600, -0.03736289, -0.18754509, -0.36838180, 0.03637199}
},
{
{-0.32926032, -0.35058406, -0.30743962, -0.08166750, -0.54972211},
{0.07388509, -0.01776159, -0.06959734, -0.17053715, -0.14308122},
{-0.04129065, 0.08440713, 0.07858593, -0.14715632, -0.14808978},
{-0.01643289, 0.13379971, -0.00831936, -0.25669252, 0.25320235},
{0.12865671, 0.06769287, 0.22599835, 0.06250100, 0.17736857}
},
{
{-0.01995866, 0.09207952, -0.27362795, -0.20238082, -0.04564111},
{0.44256036, 0.12962923, -0.00860486, -0.15898352, -0.06511202},
{0.50102869, 0.07540065, -0.30800061, -0.28114995, 0.25381075},
{0.54891747, 0.12749980, -0.25396722, -0.20502926, 0.10276945},
{0.68736722, 0.18681896, 0.13328125, 0.10569904, 0.14800902}
},
{
{-0.05931160, 0.01923972, 0.15643876, 0.04702325, 0.35434724},
{-0.20710572, -0.02983175, 0.20438809, -0.07697711, 0.07372563},
{-0.13477024, 0.03225230, -0.27265557, -0.30494787, -0.02938554},
{-0.12998327, -0.21860937, -0.30705722, -0.02227866, -0.09535982},
{0.12176045, -0.06094581, -0.09529669, -0.04261801, 0.36867051}
},
{
{-0.46338833, 0.25527025, -0.06939169, -0.45100956, -0.22764898},
{-0.24062708, 0.11420202, -0.06846022, -0.26784953, -0.39896247},
{0.02827023, -0.14415841, 0.09275682, -0.16117813, -0.34524924},
{0.34905185, 0.22390742, 0.23917051, -0.09027824, 0.09944639},
{0.29368792, 0.22878188, -0.18013659, -0.04470633, 0.05384496}
},
{
{-0.57091073, -0.40588118, 0.10048600, -0.14965543, -0.35123015},
{-0.18764839, 0.02146299, -0.06079334, -0.28834433, -0.18067728},
{0.04758566, 0.11583900, 0.08529147, -0.38572668, 0.05166887},
{-0.08904170, -0.19158113, 0.05803089, -0.05023954, 0.35731076},
{0.55522974, -0.10689817, -0.16675425, -0.04590552, 0.36834080}
}
}
};
REAL b2[FM_2] = { 0.62302877, -0.74425520, -0.59345378, 0.40730158, 0.24417745, -0.32195892, -0.45583238, 0.18953088, 0.20389913, -0.90549893, 0.00890204, 0.30821472, 0.69316325, 0.25951339, -0.07713137, 0.60326412 };
//Output tensor
#define DIMW_2 2
#define DIMH_2 2
REAL o2[FM_2][DIMH_2][DIMW_2];

/*Linears*/
/*Layer 1*/

#define LIN_0 64
static REAL lin[LIN_0];
//Kernel
#define LIN_1 10
//Weights and bias tensors
REAL lw1[LIN_1][LIN_0] =
{
{-0.10300400, 0.15371654, 0.17722893, -0.01734069, 0.13570405, 0.29803400, 0.19548073, 0.45161407, -0.43700296, 0.14531872, 0.01141903, 0.26518997, 0.06923657, 0.07558748, -0.44077676, -0.28356660, 0.06940471, 0.05245022, -0.35299757, 0.41270344, 0.45508880, 0.25669439, 0.04614404, 0.22665040, 0.20577771, 0.05785934, -0.14259122, 0.18986635, 0.32633778, -0.04837660, 0.36524664, 0.69731128, 0.74140980, -0.01814957, 0.19086655, -0.36238797, 0.35624125, 0.52378871, -0.59151114, 0.53430883, -0.04146943, 0.00909535, -0.11888436, -0.35899919, 0.48107634, -0.26198113, 0.02236779, -0.13194970, 0.17891390, -0.43267766, 0.45253717, -0.03372626, 0.19903951, 0.12747009, -0.32963646, -0.25610928, 0.55706353, 0.01152274, 0.18058064, -0.08474453, 0.55006822, 0.68380126, 0.33731450, 0.41673400},
{0.51892619, -0.11943153, -0.09667912, 0.39403279, -0.48074536, -0.04253877, -0.11200269, -0.45130884, -0.06697196, -0.28868840, 0.53247160, -0.13305538, -0.33400563, 0.17815302, 0.11125756, 0.37495535, 0.40818783, -0.20703898, 0.38473314, -0.00204232, 0.32081933, 0.01131685, 0.19502656, -0.42669975, -0.15431368, -0.22254463, 0.52076875, -0.01768991, -0.22690041, -0.20532939, -0.19497777, -0.31950734, -0.30584150, 0.21528040, -0.29314959, 0.27773687, 0.23539441, -0.17540504, -0.20760336, -0.24203639, 0.77487504, -0.30515953, 0.46670198, 0.49946244, 0.46140305, 0.32283837, 0.02924265, -0.21030986, -0.34079818, -0.06417479, -0.30888791, 0.60855371, 0.04313841, -0.13398588, -0.13222505, 0.09752129, -0.29970111, -0.05147060, -0.20945212, 0.34245811, 0.05627074, 0.22460264, -0.26368945, 0.30805046},
{0.50074755, 0.09359658, 0.62760622, 0.12619414, -0.09608810, -0.43170658, -0.27055642, -0.06772578, -0.07968910, 0.15531573, -0.18635007, 0.18273919, -0.11043765, 0.12435006, -0.47922355, -0.37516488, 0.10829000, 0.32464967, -0.03502055, -0.12607765, 0.04761845, -0.37760965, 0.06891222, -0.09258267, 0.28133321, 0.17491150, -0.04813241, -0.43682490, 0.30827031, 0.06615114, 0.35707247, 0.15361868, -0.17320544, -0.19592117, -0.17365240, 0.05107529, -0.37153457, 0.09028626, -0.27514964, -0.28048436, -0.26399666, -0.01604305, 0.05918353, 0.32849717, -0.28754350, -0.27651106, 0.00658445, -0.19029208, -0.18034792, 0.29254809, 0.11259532, 0.61683954, -0.07037809, 0.24518592, -0.22825036, -0.04444396, 0.31670722, 0.16177356, 0.23956390, -0.00718268, -0.31570692, 0.32611924, -0.11291466, 0.12411977},
{0.25439920, 0.08159275, 0.80730448, 0.47424247, 0.31449948, 0.09849263, 0.28800601, -0.06477868, 0.24709658, 0.17410285, 0.02399185, 0.09102026, 0.00192824, 0.46971461, 0.04468004, -0.13810847, 0.17301380, 0.39188580, -0.08452225, -0.30374204, 0.02300102, 0.04332577, 0.06808615, -0.09958770, -0.18488034, 0.06087240, -0.30120794, 0.03615497, -0.27513963, 0.18200341, 0.16892891, 0.19565182, -0.40802615, -0.07332321, -0.00599326, -0.26090017, -0.20675700, 0.14403295, 0.32320201, 0.38711939, 0.04445793, 0.59014121, -0.03122927, -0.53825322, -0.15439165, -0.23260821, -0.12559877, 0.18073552, -0.12769573, 0.42326073, -0.20097130, -0.29647138, -0.28546218, -0.21598924, -0.44117114, -0.06927084, 0.01841675, -0.22804441, -0.21034861, -0.31576693, -0.06499929, -0.52923778, -0.15160676, -0.41232023},
{-0.17656925, 0.07965509, -1.02724336, -0.45394506, -0.65960872, -0.11257301, -0.28132612, -0.50967889, 0.16432590, -0.11043208, 0.28268802, -0.22851364, -0.08666457, -0.30339430, 0.74777104, 0.17918892, -0.25670771, -0.06374335, 0.24758910, 0.07700175, -0.34822166, 0.12502086, -0.36245568, -0.24840896, -1.13696559, -0.48540290, 0.13436932, 0.01643589, 0.00873571, -0.14613272, -0.13392972, -0.45456081, 0.13032652, 0.06349947, -0.10899847, -0.22558813, 0.31005784, -0.05365015, 0.40985189, -0.01468008, 0.07312404, -0.03397992, 0.16138395, -0.08872577, 0.29493370, 0.68788316, -0.34018694, 0.05753429, 0.56593987, 0.15347406, -0.09586521, -0.06475250, 0.11108661, 0.17498832, 0.60907900, 0.64736433, -0.15385398, -0.65325470, 0.09483520, -0.06593059, 0.44473370, 0.20012198, 0.06876975, 0.15013811},
{-0.50590415, -0.08075597, 0.51442393, 0.33506152, 0.40520805, 0.26932784, 0.04654068, -0.09205324, 0.41702347, -0.05344824, 0.17653995, -0.14327887, 0.24389539, -0.11630721, 0.14430548, 0.06090924, -0.30347356, -0.86845571, -0.24959689, -0.24219303, 0.05531852, -0.24969676, -0.34703369, -0.11659567, -0.19305580, 0.60592881, -0.46270377, -0.09194316, -0.33909953, -0.13537158, 0.31589913, 0.00126761, 0.15234174, 0.00998365, -0.12982211, -0.05363050, 0.27936540, -0.51096507, -0.10831289, 0.20463627, 0.00092161, 0.16393877, -0.61860621, -0.25757482, 0.24122019, 0.05614180, -0.15741567, 0.07830165, -0.14832462, -0.20718082, -0.28573831, -0.31256242, -0.16310589, 0.41131618, -0.32459902, -0.14608997, -0.28404071, 0.31557539, -0.07210145, -0.10225039, -0.17559715, -0.42153571, 0.04956677, -0.14239464},
{0.01061758, 0.19564789, 0.15348151, 0.12571966, 0.00766909, 0.08493103, 0.24416996, 0.39805957, -0.43266319, 0.16577778, -0.18291590, 0.01351335, -0.17940852, -0.54776314, -0.35730692, -0.45925731, -0.12357003, -0.74942044, -0.10133862, -0.01688120, 0.24909874, -0.28105506, 0.15697730, -0.12900785, -0.03466111, -0.42007255, 0.05051116, -0.11415165, 0.00183565, 0.10883847, -0.01439880, 0.18829622, 0.62902551, 0.10216622, 0.32427641, 0.32923398, 0.04831292, 0.10587481, -0.00106814, -0.46836319, 0.13851549, -0.17130410, -0.16994916, -0.10927947, 0.31255512, 0.57631630, 0.03554176, 0.37078932, 0.52782622, -0.07930076, 0.55900585, 0.01793673, 0.03666969, -0.14674838, -0.04723890, -0.71780610, 0.06694616, -0.18457299, 0.15508719, 0.07680737, 0.18756404, -0.10375278, 0.29343693, 0.09698830},
{-0.09706115, -0.18359428, -0.48429423, -0.47074502, 0.37636819, 0.42427749, -0.39365380, 0.06054526, 0.38204238, 0.07253125, 0.08424107, -0.05330193, -0.04749394, 0.02075660, -0.51760751, -0.29302330, 0.17766814, 0.53136650, 0.12369408, 0.25792248, 0.21555114, 0.13058883, 0.04404822, 0.49186013, 0.68673418, 0.17030566, 0.38766152, 0.11653880, 0.44159912, 0.47493612, -0.52510138, -0.10257379, -0.45700316, -0.30098878, -0.07467354, 0.20315331, -0.11837518, -0.09609589, 0.06041818, 0.31709531, -0.06381355, -0.31879865, 0.36010839, 0.32891782, -0.46629935, -0.26631181, 0.33952164, 0.08120615, -0.24058163, 0.28991477, -0.61891229, -0.30077470, 0.55291202, 0.22452766, 0.16974231, 0.20858119, 0.39716675, -0.08312838, 0.28637199, 0.24827252, -0.46495770, -0.07408640, -0.25910565, -0.20835498},
{0.15988209, 0.02311613, 0.31189306, -0.18932979, -0.23084928, -0.14005443, 0.06561937, 0.19536274, -0.12914964, -0.03329929, -0.57836066, -0.29692436, 0.01266730, 0.06030380, 0.38178919, 0.62081636, 0.22088608, 0.41923247, 0.40795747, -0.38230189, -0.35554705, 0.03817290, 0.18859093, -0.15173906, 0.36186644, -0.00558531, -0.23945492, 0.06168731, -0.02130924, 0.09659742, 0.01814460, 0.01717987, -0.23862765, -0.12040909, -0.02276586, 0.34657963, -0.31035537, -0.23781216, 0.00280701, -0.30510295, -0.28835932, 0.16655246, -0.22390239, -0.36285067, -0.06116437, -0.52692242, 0.10766923, 0.31615858, -0.11089316, 0.23526477, -0.01064213, 0.03579017, -0.06853382, -0.05344815, 0.21634888, -0.16872963, -0.31453480, 0.43197763, -0.07603527, -0.33078524, -0.27678888, -0.31313165, -0.23615970, -0.10562892},
{-0.64116197, -0.26890192, -0.83515311, -0.56250941, 0.06739764, -0.36555014, -0.32375873, -0.04118275, -0.29630482, -0.00849534, 0.04839528, -0.01433494, 0.54946269, 0.04907366, 0.27117646, 0.25141835, -0.24631733, 0.44438693, 0.14711831, 0.36062560, -0.58955635, 0.04327303, -0.29014141, 0.16612623, 0.05444022, 0.18513710, 0.24683901, 0.39641031, 0.06971869, 0.13888475, -0.39686939, -0.37714753, -0.28992302, -0.12406495, -0.12299824, -0.10634777, 0.09147564, 0.00363364, 0.43429200, 0.05492014, -0.57674410, -0.17895967, 0.22382329, 0.20529273, -0.62903517, -0.33591121, 0.15752013, -0.06080509, 0.07995501, -0.35132581, 0.23071246, -0.30206597, -0.27638096, -0.53768226, 0.33609694, 0.43517712, -0.04831346, 0.42698541, -0.38854459, 0.14765939, -0.28757179, 0.02085104, 0.06603886, -0.05171788}
};
REAL lb1[LIN_1] = { 0.11120644, -0.03394627, 0.41794822, -0.20191111, -0.12238567, -0.03204557, -0.79969705, -0.63053830, 1.92554076, -0.67715271 };
//Output tensor
REAL l1[LIN_1];

/*Results tensor*/
#define CLASSES 10
static REAL res[CLASSES];
#endif
