/*
 * Copyright 2016 Andrea Solazzo, Emanuele Del Sozzo, Gianluca Durelli, Matteo De Silvestri, Irene De Rose
 * 
 * Licensed under the Apache License, Version 2.0 (the "License");
 * you may not use this file except in compliance with the License.
 * You may obtain a copy of the License at
 * 
 * 	http://www.apache.org/licenses/LICENSE-2.0
 * 
 * Unless required by applicable law or agreed to in writing, software
 * distributed under the License is distributed on an "AS IS" BASIS,
 * WITHOUT WARRANTIES OR CONDITIONS OF ANY KIND, either express or implied.
 * See the License for the specific language governing permissions and
 * limitations under the License.
*/

#ifndef _PARAMETERS_H_
#define _PARAMETERS_H_

#define REAL float

/*Convolutionals*/
/*Layer 1*/

#define FM_0 1
#define DIMW_0 16
#define DIMH_0 16
REAL input[FM_0 * DIMH_0 * DIMW_0];
//Kernel
#define FM_1 6
#define KW_1 5
#define KH_1 5
//Pooling parameters
#define PW_1 2
#define PH_1 2
#define PSQ_1 4
#define PS_1 2
//Weights and bias tensors
REAL w1[FM_1][FM_0][KH_1][KW_1] =
{
{
{
{-0.20858508, -0.41076731, -0.45146113, -0.61042974, 0.34894526},
{0.30222762, 0.32003485, -0.49094405, -1.12766793, -1.23691027},
{0.11728359, 0.94436418, -0.00959281, -0.81482086, -1.05740898},
{-0.02701117, 1.07068106, 0.52656330, 0.50925380, -0.13988987},
{0.31539091, 0.88610688, 0.66245680, 0.31593934, -0.07942206}
}
},
{
{
{0.82378261, 0.15460746, -0.29399590, -1.11787677, -0.02495838},
{0.54423566, -0.58554079, -0.39007560, 0.46923733, 1.23920016},
{-0.00502944, -0.02976204, 0.67621949, 0.89094617, -0.00340911},
{0.30724517, 0.53426283, 0.42364978, -0.19771459, 0.28974894},
{0.99586382, 0.16892929, -0.01263317, -0.23654691, 0.26356422}
}
},
{
{
{-0.08873115, 0.57647973, 1.17228918, 1.69366920, 1.58827861},
{0.21775907, 0.51168345, 0.37608362, -0.45490582, -0.98525978},
{-1.55099743, -1.83981318, -1.81728009, -0.99879759, -0.54722842},
{-0.58252967, -0.39573711, -0.00181075, -0.03130236, -0.07234462},
{0.39639280, 0.99853965, 0.51021036, 0.27815335, -0.17432101}
}
},
{
{
{-0.06376871, 0.97319714, 0.38680885, -0.03120187, 0.10079280},
{0.72427792, 0.63234778, -0.21793509, -0.71111082, -0.17959802},
{1.10317372, -0.14433648, -0.73754247, -0.56954208, 0.13089649},
{0.68185818, -0.35406688, -0.72675006, 0.31806327, 0.24856664},
{0.32995418, -0.10579786, -0.01553388, 0.05424504, -0.40936644}
}
},
{
{
{-0.44629184, -0.68099305, -0.77922465, -0.28081692, -0.19645411},
{-0.74912023, -0.92290649, 0.01800270, 0.48922281, -0.97312955},
{-0.48080987, 0.56648458, 0.66722111, -0.48629811, -0.53610470},
{0.80817984, 0.83881138, -0.24273336, -0.37064378, 0.60447514},
{-0.13452938, -0.79857792, -0.48372495, 0.84211346, 0.56331607}
}
},
{
{
{0.02605725, 0.08591376, 0.15957527, -0.18096744, -0.28744164},
{-0.04249464, 0.43875044, 0.31104269, -0.15609908, -1.04902717},
{0.26273854, 0.66179079, -0.19547577, -0.71089717, -1.00079447},
{0.19749646, -0.40206649, -0.97333332, -0.94543528, -0.38583566},
{-0.95705967, -0.73262896, -0.41730170, -0.33208276, 0.03956288}
}
}
};
REAL b1[FM_1] = { -0.18344426, -1.94340268, -0.54839345, -0.65151876, 0.17549264, 0.74140551 };
//Output tensor
#define DIMW_1 12
#define DIMH_1 12
REAL o1[FM_1][DIMH_1][DIMW_1];
//Pooling output tensor
#define PDIMW_1 6
#define PDIMH_1 6
static REAL p1[FM_1][PDIMH_1][PDIMW_1];

/*Linears*/
/*Layer 1*/

#define LIN_0 216
static REAL lin[LIN_0];
//Kernel
#define LIN_1 10
//Weights and bias tensors
REAL lw1[LIN_1][LIN_0] =
{
{-0.05988293, -0.12689323, 0.40141645, 0.14442262, -0.06984423, 0.40700762, -0.27034327, -0.08098423, -0.35222603, -0.10145149, -0.00060257, 0.19165776, 0.29981561, -0.35545364, -0.23495339, -0.45747455, 0.02346191, 0.02661995, 0.44402128, 0.04953418, -0.36380597, -0.14158912, -0.41486784, -0.25723677, 0.24623281, 0.11561604, -0.05662610, -0.22975771, -0.20269116, -0.46599955, 0.30751677, 0.11544401, 0.35756855, 0.27725129, 0.13787861, -0.29980828, 0.21496565, 0.06303099, -0.00681333, 0.16403358, 0.31081005, 0.15890956, 0.30334234, -0.08667724, -0.12141604, -0.21700810, -0.36351452, 0.11919449, 0.26005000, 0.25461373, -0.21734511, -0.16981142, -0.32223784, 0.25211964, 0.48788418, 0.24034840, -0.24730284, -0.16092515, -0.08729593, 0.18673383, 0.19757537, 0.19811155, 0.10499322, 0.20003903, 0.08382021, 0.30872091, 0.20186494, 0.47102499, 0.55249404, 0.34774002, 0.20297891, 0.19426475, -0.19922772, 0.00027702, 0.13679761, -0.15764958, 0.29106833, -0.14588651, -0.08046365, -0.00138354, 0.06852144, 0.13203681, -0.05358651, -0.20233775, -0.43483794, -0.22604119, -0.35154604, -0.05321073, 0.02468626, -0.35266596, -0.45020616, -0.47506240, -0.08797299, -0.25066725, -0.29944099, -0.15749275, -0.20901863, -0.25218990, -0.15386623, -0.24677968, -0.17593699, -0.12990573, 0.00062730, -0.00317972, -0.16958031, 0.00331082, -0.05319111, -0.03622927, -0.15758037, -0.25255199, -0.27086670, -0.38371762, -0.34854344, -0.18397103, 0.02186720, -0.06597590, -0.03324913, -0.05961237, 0.11987396, -0.18394860, 0.44866604, 0.15321850, 0.09366563, 0.05440242, -0.21592368, -0.17455179, 0.49646992, 0.60682506, 0.13211889, -0.16333832, -0.30168266, 0.13122043, 0.43535348, 0.43875091, -0.05896865, -0.05844151, 0.00118376, 0.22961428, 0.41737128, -0.22964227, 0.00401392, -0.04631937, 0.24765123, -0.00020754, 0.29436205, 0.09304723, 0.18939742, 0.08013231, 0.10286304, 0.12362670, 0.06016439, 0.06877040, 0.08780089, -0.25369713, 0.10020160, -0.42991687, 0.24048913, 0.11105554, -0.03566650, -0.38752911, -0.33072294, -0.20734378, -0.20440199, 0.28364147, -0.17153763, -0.10396494, 0.27581272, -0.09638162, -0.03193433, -0.15552036, 0.10421218, 0.17405618, 0.23179757, -0.00446585, 0.05049677, -0.09080517, 0.01332863, 0.16946902, 0.21158522, -0.01339498, -0.23919633, -0.26939675, -0.18503877, 0.09669604, -0.35788121, -0.41114048, -0.32505895, -0.02010375, 0.11793850, -0.16898405, -0.07214993, -0.42897483, 0.09428067, 0.16551631, 0.17220900, 0.35632739, 0.04469737, -0.53703421, -0.02613332, 0.30923585, 0.29945369, 0.21274052, 0.20207496, -0.34145350, 0.15398762, -0.01071162, 0.10906450, 0.30839230, 0.08212079, -0.32439292, -0.23724417, 0.01462523, 0.15664183, 0.11342458, 0.05675314, 0.03463958},
{0.02765381, 0.31023827, 0.30252405, 0.04354316, -0.09242180, 0.07858221, -0.32207927, -0.02442837, 0.17684766, 0.00347165, -0.20276294, 0.01577715, -0.52251413, -0.14712827, -0.18014193, -0.04863925, -0.20432567, -0.22663193, -0.84035836, -0.31782625, -0.15704998, -0.01834915, -0.15568422, -0.08895876, -0.19174822, 0.00275661, -0.34927908, 0.01641647, 0.04456059, 0.19171869, -0.12500403, 0.08475522, -0.11189230, -0.05855873, 0.15422263, 0.71568161, -0.37531322, -0.35966001, -0.22918021, -0.23898284, 0.10587093, -0.23878886, -0.39591815, -0.15918823, 0.07342839, 0.06339344, -0.12093956, -0.22359036, -0.32027247, -0.09295646, 0.30903482, -0.10054417, -0.12050176, -0.21910610, -0.21576266, 0.13064111, 0.32699345, 0.06143065, -0.10588316, -0.23392667, -0.19309440, 0.25209414, 0.12607448, 0.14909137, -0.03100776, -0.21067624, 0.21340736, -0.43040233, -0.17797495, -0.18399670, 0.12464021, -0.06618618, 0.10388959, -0.55401706, -0.28247252, 0.00339360, 0.00654119, -0.23607677, 0.04272710, -0.33679031, -0.44262247, -0.28324879, -0.46949456, -0.19697386, -0.26004777, -0.27319109, -0.32274620, -0.46153412, -0.39911526, -0.35639291, -0.08467651, -0.47224850, -0.52034612, -0.12643157, -0.38393407, -0.08038181, -0.25793619, -0.37723321, -0.37128957, -0.36526091, -0.21520560, -0.11138611, -0.12823354, -0.07726997, 0.19320041, 0.08357737, 0.17155414, 0.08278812, -0.29427771, -0.12155336, -0.22727335, -0.20411597, -0.01676729, -0.02005754, -0.30825160, -0.17010614, -0.36867756, -0.22119378, -0.11564589, 0.22352172, -0.26817279, -0.29068893, -0.13624758, -0.00966994, 0.01638609, -0.18144748, -0.48390383, -0.14722760, 0.12409201, 0.15644715, 0.09279255, -0.26532029, -0.43294265, 0.04207188, -0.08684656, 0.03521469, -0.14346876, 0.03783896, -0.23021994, 0.56903680, -0.09179961, -0.05599355, -0.22994338, -0.01636503, -0.31760240, -0.21673138, 0.07210792, 0.06648251, -0.01992916, 0.00190936, -0.07239476, -0.26835066, 0.09160856, 0.01247138, -0.20709121, -0.02461294, -0.04861252, -0.05237981, -0.05270432, -0.14249021, -0.25437631, -0.37753682, -0.16970005, -0.11699310, 0.12648854, -0.07374697, -0.28610579, -0.26348291, -0.08193568, -0.22358425, -0.09945234, 0.00544693, -0.19190887, 0.01619220, -0.29411398, -0.06338268, -0.00240944, -0.18819368, 0.14381452, 0.17915714, -0.34768031, 0.09021547, -0.06015602, -0.07817979, 0.32305263, 0.10395501, -0.27822630, -0.14220172, -0.19919777, 0.06189171, -0.32629434, 0.23272841, -0.24379533, -0.29421379, -0.03472258, -0.26721916, -0.22549217, 0.20589215, -0.32786889, 0.09569754, -0.08668228, -0.37549036, -0.06169864, 0.25115423, 0.10463280, 0.02908922, -0.11653807, 0.08798373, -0.02996182, 0.30503717, 0.26679685, -0.22244106, -0.22659476, -0.11543057, -0.29784516, 0.01170779},
{-0.48690798, -0.04935542, 0.03699027, 0.07193283, -0.27699747, 0.04869074, -0.32854566, -0.35021696, 0.14678867, -0.04441313, -0.19740996, -0.23311219, -0.03180167, 0.49198900, 0.33949520, 0.13639207, 0.08039852, -0.40517862, 0.12357918, 0.10941713, 0.13935154, -0.18632804, -0.07015634, -0.16054577, -0.04975500, 0.20025508, 0.11217438, 0.14196245, 0.61042674, 1.07349152, 0.53366831, 0.05377040, -0.02917788, 0.07359311, 0.28684799, 0.37068564, -0.18034576, -0.23617099, 0.15789903, 0.07491649, -0.49259525, -0.65564236, -0.44856774, -0.43577115, -0.34995713, -0.16443372, 0.00578881, 0.09716513, 0.23199602, -0.01930730, -0.38254205, -0.15651946, -0.11847752, -0.36314225, 0.39495152, 0.04277275, 0.10551885, 0.18029495, 0.43506238, 0.16695499, 0.78256135, 0.31930961, 0.37765198, 0.49221222, 0.36043424, 0.38265289, 0.36607184, 0.36338846, 0.18248431, 0.33739280, 0.04503422, 0.39462638, 0.08620426, 0.21120504, 0.10976911, 0.07429714, 0.09859183, -0.35244321, 0.69629122, 0.14220150, 0.30808140, 0.48134544, -0.11102235, -0.46552105, 1.01243753, 0.60855323, 0.37702647, 0.17928097, -0.06543559, -0.32887954, 0.27718279, 0.42664630, 0.18840799, 0.10912369, 0.03883638, -0.56470934, -0.04706228, -0.07869675, -0.02343049, -0.23967195, -0.19650527, 0.12493088, -0.18804476, 0.12053825, -0.31867652, -0.00014424, -0.14677897, 0.59401647, 0.01204529, 0.07257714, 0.23780063, -0.36334898, 0.19254411, 0.08338187, -0.02597697, -0.16802139, -0.08403228, -0.00998250, 0.01115207, 0.25611817, -0.36456169, -0.03467285, -0.24777210, 0.21839953, -0.02715936, 0.42420093, 0.08100595, 0.10915502, 0.08853161, 0.12908535, 0.04684481, 0.03049522, 0.28756925, -0.10900119, 0.30420644, 0.13612091, 0.01087669, -0.07213632, 0.28031372, 0.14083206, 0.20615277, 0.03825299, -0.25672023, -0.25388623, -0.09928925, -0.18968230, -0.24740635, -0.27621877, -0.41917766, -0.35547210, -0.01905711, 0.01091054, -0.16569241, 0.04130594, -0.36708682, -0.02654626, 0.63029505, 0.21127266, 0.31517423, -0.03475269, 0.25876812, 0.11446352, 0.53305414, 0.10510920, 0.11636921, 0.22712222, 0.43455472, -0.03070082, -0.05466800, 0.03257060, 0.05922699, -0.34401906, 0.14206327, 0.04913073, -0.02921420, 0.02616110, 0.03628549, 0.10388383, 0.09436156, 0.40385814, 0.22437845, -0.06314669, 0.07928806, -0.12486591, 0.05786251, -0.24789893, 0.64334419, 0.50016601, 0.01404608, 0.40575231, 0.44512244, -0.06986434, -0.00642092, 0.17683687, -0.01912917, 0.07703201, 0.17703565, 0.05337612, -0.02621875, -0.43173788, 0.04707979, 0.00053222, 0.00579341, 0.29530987, -0.17887690, -0.11178610, 0.05659351, 0.11023120, 0.01331808, -0.20459896, -0.21191275, 0.17313743, -0.34494935, -0.02365101, -0.20496494, -0.50673347},
{-0.33932386, -0.06899689, -0.13890872, 0.06445260, 0.13136094, -0.25397473, -0.68299280, -0.09201865, -0.14478644, -0.10213257, 0.03286759, -0.43831550, -0.06742814, -0.09088919, -0.03527546, 0.47218024, -0.36805108, 0.47228041, 0.04101428, 0.12091906, 0.53555605, 0.30437458, 0.50392093, 0.33746643, 0.27950850, 0.16863241, 0.29132151, 0.28780716, 0.22058419, -0.27853243, 0.47644611, 0.54300798, 0.25052672, -0.04697354, 0.22557294, -0.36449625, -0.56561284, 0.13009327, -0.05870801, -0.22420219, -0.19523152, 0.19639947, -0.25314547, -0.30708998, 0.20810771, 0.35898161, 0.56268254, 0.70472610, -0.14005192, -0.06832748, 0.27444915, 0.19431252, 0.45934574, 0.50812510, -0.35702261, -0.70124851, -0.31949795, -0.32807996, -0.09728936, 0.13863803, -0.62883508, -0.84411964, -0.55547975, -0.46629463, -0.20073161, 0.15651324, 0.15679623, -0.09516440, 0.01264802, 0.32270557, 0.20976981, 0.09416841, 0.52038663, 0.18396580, 0.20258088, 0.09264174, 0.22679374, -0.33215043, 0.75212912, 0.42162132, 0.35830284, 0.37886163, 0.29298835, -0.15541655, 0.34889368, 0.18676995, 0.25054833, 0.42528540, 0.19028464, 0.01006546, 0.19424482, 0.21050916, 0.36162862, 0.34620016, 0.40216142, 0.20880694, 0.23582029, 0.43981016, 0.53463738, 0.48618655, 0.24878636, -0.06652963, 0.16831993, 0.14382119, 0.05322616, -0.04567805, 0.20741267, -0.03913393, -0.14685399, -0.32282820, -0.21322598, -0.04631997, 0.14379290, 0.09225973, -0.28912530, -0.28145221, 0.08454891, -0.17275238, -0.00922331, 0.27488284, 0.15672794, -0.12779803, 0.07601867, 0.16037246, 0.09620736, 0.11129042, -0.11999881, -0.33990856, -0.12229202, -0.10731872, -0.04783308, 0.02213172, -0.44338469, -0.54704944, -0.27869491, -0.23171418, -0.26754962, -0.06819020, -0.31577466, -0.19498818, -0.13301339, -0.23238808, -0.00556765, -0.06868726, -0.36225350, -0.19829911, -0.33303501, -0.35040306, -0.21075745, 0.07992855, 0.31839641, -0.02363567, -0.16463719, 0.08077554, -0.12646776, 0.00408886, 0.60667506, -0.10821852, -0.05169797, 0.02013648, -0.21020862, 0.14534983, 0.06666240, -0.21760286, -0.25560737, 0.12435701, 0.05629074, 0.31872569, -0.12354500, 0.04535287, 0.04520906, 0.06528420, 0.20847085, 0.04378741, 0.11747068, -0.02277739, 0.29044250, 0.25097143, 0.29399434, -0.28861934, 0.48984577, 0.24534222, -0.34614015, -0.07806490, 0.20685180, 0.16467448, 0.35151644, -0.00267705, 0.02470628, 0.26980043, 0.22716777, 0.28600534, 0.09718732, 0.04338117, 0.03535430, -0.09194123, -0.31108052, 0.40659283, -0.29189770, -0.39137864, -0.27561052, -0.26651467, -0.03292865, -0.34094522, -0.38688579, -0.41671449, -0.39015657, -0.10837901, -0.09099893, -0.31199409, -0.43740832, -0.14570009, -0.01643146, 0.04799314, -0.05345288, -0.03713661},
{0.34243304, 0.53570968, 0.15539245, -0.18804183, 0.10246229, 0.01471345, 0.79957240, 0.75897197, 0.41314646, 0.26895749, 0.17366184, 0.01838771, 0.19290787, -0.11875640, -0.07621192, 0.08611005, 0.25207389, 0.03000452, -0.19416004, -0.01916764, -0.23255132, 0.03844534, 0.13731256, 0.01891221, -0.00935480, -0.14407863, -0.12220530, 0.03035506, -0.03045625, -0.21172316, -0.87973841, -0.79152031, -0.58119776, -0.29427509, -0.39639597, 0.00600311, 0.13274984, -0.17453913, -0.52918008, -0.58237758, 0.01980689, 0.36354600, 0.73882333, 0.55304658, 0.29603203, -0.10623778, -0.11320038, 0.08547889, 0.78157190, 0.36595600, -0.08837214, -0.10789060, 0.05131898, 0.27536375, 0.44629276, -0.18857623, -0.10738862, 0.18212190, 0.04136995, 0.05048240, -0.08006401, 0.16527745, -0.01088379, -0.04256446, -0.04326162, -0.09946681, -0.47407576, -0.43572371, -0.43292021, -0.21196997, -0.04860068, -0.75754892, -0.20466005, -0.66460046, -0.28517818, -0.43301784, -1.05243911, -0.80994305, -0.63829357, -0.30026893, -0.39782112, -0.61264802, -0.54539793, -0.33309942, 0.11032356, 0.17666834, -0.00485353, -0.37670514, -0.39256355, 0.09804912, 0.39829444, 0.07227134, -0.25531549, -0.02867715, 0.35965955, 0.39418042, 0.06796513, 0.24155504, 0.28624662, 0.14515148, 0.40323327, 0.46825264, 0.40533975, -0.13888321, 0.05396643, 0.11699486, 0.13645186, 0.68809129, -0.42320413, 0.01224366, 0.15477792, -0.08492722, 0.11741667, 0.03874288, -0.02833497, -0.11408439, 0.10466819, 0.10755984, -0.15025256, 0.44419897, 0.29614984, -0.06215518, -0.07625127, 0.02481165, 0.11522866, 0.02737075, 0.27631121, 0.24451816, 0.00503765, 0.23285785, -0.00699087, 0.01600333, 0.55657936, 0.09905829, 0.07320388, 0.22551103, 0.16020082, 0.00553941, -0.19662073, 0.18804094, 0.22091164, 0.01800525, 0.24801415, 0.37697750, 0.45635558, 0.38771478, 0.27948893, 0.21821899, 0.43808484, 0.46511136, 0.32950483, 0.05548793, -0.03806114, 0.26363374, 0.17905784, 0.21951507, -0.19885610, 0.05431271, -0.17686927, -0.42624511, -0.13750517, -0.28357611, 0.03264181, 0.09491829, 0.04593111, -0.29424768, -0.12292562, -0.08540542, 0.24207547, 0.22318469, 0.11139626, 0.03188750, -0.02899021, -0.21226937, -0.03594023, -0.11719281, 0.16751808, -0.20616915, -0.22199336, -0.11362118, -0.00196977, 0.34804351, 0.66878243, 0.50739981, 0.55037039, 0.10687393, -0.20961903, -0.16551931, -0.04177390, -0.05702799, -0.14148297, -0.10063548, -0.05213738, -0.20311380, -0.12719946, -0.17440122, 0.31122024, 0.19953598, -0.08339030, 0.13302083, -0.05339596, -0.05735854, 0.09877404, 0.01550928, 0.32464984, 0.10273928, -0.11657151, -0.05701264, -0.11074197, 0.04324325, 0.48111812, 0.09775259, 0.21267158, -0.00628244, 0.03504433, 0.51480720},
{-0.25623732, -0.61534148, -0.29767276, -0.28267935, 0.18917483, -0.33843106, 0.33191846, 0.08719119, 0.24690444, 0.03407862, 0.46928598, 0.62738565, 0.00326967, 0.30377624, 0.29100050, 0.42617084, 0.41431616, 0.52261018, 0.08712963, 0.37393152, -0.20013687, 0.19035062, -0.03280989, 0.01449786, 0.27995551, 0.07691188, 0.15142427, -0.05792588, -0.52131839, -0.17331869, 0.51091019, 0.25294081, 0.00053069, 0.20877405, -0.08159103, 0.10344817, -0.23549871, 0.00378629, 0.34588105, 0.55475953, 0.23960700, 0.09841506, -0.09584710, 0.11739040, -0.06042998, -0.34216221, -0.92779026, -1.03092979, -0.22335131, 0.07073550, -0.04328795, -0.26330877, -0.57182593, -0.91202606, -0.43355243, -0.04073995, -0.17824631, -0.29490578, -0.18281437, -0.31370933, -0.28208435, -0.42447552, -0.01134358, -0.20787538, 0.15280688, 0.00660893, 0.18097102, 0.68786591, 0.47883276, 0.22382990, 0.20591436, 0.33247730, -0.66884460, -0.14529696, -0.14865413, -0.10548416, -0.24033636, 0.93681170, -0.51529807, -0.09422950, -0.29154985, 0.05140794, 0.51125938, 0.78419380, -0.10732785, 0.17019827, 0.21526555, 0.25008816, 0.45450260, 0.20512946, 0.59662794, 0.33660031, 0.20343726, 0.17898545, -0.02268302, 0.14006307, 0.42501820, 0.27742983, 0.25898414, 0.14204588, 0.10082509, -0.19620260, 0.33036850, 0.22291739, 0.23536547, 0.07441888, -0.20872257, -0.28239570, 0.13444688, 0.09473020, 0.13323269, 0.20434173, 0.03686087, 0.42522469, 0.10354237, 0.32496607, -0.24699990, -0.03289573, -0.13078894, -0.44887487, -0.27730137, 0.12206318, 0.13032615, -0.21540727, -0.27935612, -0.52794116, -0.20431497, -0.34323337, 0.06007222, 0.06162089, -0.09865403, -0.34304813, -0.25579462, -0.56386463, -0.00864357, -0.16811185, -0.09715222, -0.00060054, -0.53740073, -0.27012596, -0.24547583, -0.12140136, -0.33774420, 0.28915628, -0.15251713, 0.01274066, -0.13362981, -0.15561335, -0.11882731, -0.16985202, -0.15448245, 0.25069452, 0.17167598, -0.27750646, 0.30949471, -0.03643483, -0.41020614, -0.15645427, -0.04616973, -0.05797183, 0.00397188, -0.20461993, -0.13369766, 0.02490103, 0.19697612, -0.13752476, -0.21159392, -0.12470328, 0.13689392, -0.17492644, -0.10001944, 0.12838690, -0.28801359, -0.02769189, 0.38724457, 0.69516476, 0.18202035, 0.22743486, -0.15793212, 0.16811369, -0.10482758, -0.16021710, 0.15260424, -0.14391338, -0.39932952, 0.35871095, -0.13593133, 0.00804098, -0.18805502, -0.54725236, -0.34864665, 0.12255141, 0.25756470, -0.19776396, -0.12907041, 0.01569585, 0.08531715, -0.00463591, -0.09943761, 0.05875352, -0.12933305, 0.37463395, -0.17881290, 0.06533097, -0.24584241, -0.11021845, 0.17353749, -0.17283551, 0.21020408, -0.01116936, -0.26839769, -0.10126045, 0.08337184, -0.12091336, 0.08628473, 0.06187389},
{0.06742854, -0.23625235, -0.32468835, -0.11108765, -0.04652966, -0.44115962, 0.07726343, -0.30362026, -0.21649689, -0.27468276, -0.31325257, 0.25375559, 0.09238599, -0.35852746, -0.30763183, -0.09032383, -0.13825454, 0.23655795, 0.31294959, -0.31121246, 0.04095253, -0.18980063, 0.53040362, 0.12863526, -0.00688893, -0.22601901, -0.04694960, -0.09520325, 0.26163265, -0.03925481, 0.21466648, 0.25310699, 0.11470194, 0.33657950, 0.04770913, -0.00957709, -0.67383139, -0.21471868, -0.28571942, -0.18043278, -0.19327605, -0.62977922, 0.05931756, 0.07237779, 0.12439420, 0.28911065, 0.12105610, -0.62505652, 0.09346485, 0.31597405, 0.10173395, 0.41753314, -0.30668116, -0.34251330, 0.40265474, 0.26404015, 0.17440389, 0.28420948, -0.10343898, 0.35047990, 0.30537407, 0.48107120, 0.48663753, 0.38076415, -0.08997064, 0.38050238, 0.29854429, 0.31375494, 0.35312730, -0.00095200, 0.31235935, 0.50255691, -0.27152317, -0.43401278, -0.28501767, 0.08079420, -0.33858089, 0.34382636, -0.63142128, -0.45563613, -0.08509275, -0.02243314, 0.22603480, 0.09543521, -0.18930135, -0.36701191, 0.02886453, 0.53840863, 0.55787443, 0.34419448, -0.68479263, -0.17449778, 0.19650739, 0.22842467, 0.23766379, 0.25956924, -0.66380638, -0.21262454, -0.04642652, -0.04979380, 0.12683517, 0.44672465, -0.34746709, -0.19585431, -0.08841598, 0.09512961, 0.22577612, -0.14179055, -0.08204130, -0.01589138, 0.09668919, 0.23436482, -0.30394469, -0.09720624, -0.11996624, 0.09918731, 0.12108973, -0.01261550, -0.11259166, -0.22238329, 0.12368925, 0.35551695, 0.14389115, -0.10266858, -0.17168187, -0.29224969, 0.15320649, 0.31343030, -0.01243518, -0.09638549, 0.00144448, -0.35512609, 0.06838112, 0.30779315, -0.02649132, 0.04540654, 0.04706856, 0.00617078, 0.31819730, 0.17541594, -0.00370762, 0.11218918, -0.02745957, -0.16994707, 0.09156085, 0.25881663, 0.21789366, 0.36446908, 0.32266674, 0.38947018, 0.19189427, 0.08481259, 0.42349211, 0.29096643, 0.16682085, 0.67913229, -0.13452634, -0.05588825, 0.16760712, 0.35738249, 0.26113383, 0.52551089, -0.08618068, -0.29459434, -0.07742867, -0.05903899, 0.09132715, 0.33010447, -0.28288341, -0.25710732, -0.26164774, -0.17408432, -0.08447086, 0.37380801, -0.16053619, -0.00340390, -0.20127542, -0.16347533, -0.19548056, -0.05076384, 0.28933502, 0.30233341, 0.37222577, 0.64991230, 0.51660956, 0.81816742, 0.16608728, 0.34322067, 0.39431707, 0.13541274, 0.22232648, 0.64257510, -0.06417109, 0.03639588, 0.08547787, -0.01332569, -0.08884229, -0.33459147, -0.01079269, -0.16079848, -0.10095417, -0.05999291, -0.15037217, -0.37647271, -0.17421162, -0.02793922, -0.17976436, -0.31232708, -0.30849161, -0.01092359, -0.12768121, -0.44663613, -0.62273226, -0.38058840, -0.30430778, -0.29362793},
{-0.05830543, 0.23798827, 0.16205145, 0.09684049, -0.38506282, -0.12347874, 0.04702385, -0.46016350, -0.55534270, -0.03958317, -0.06359817, -0.12884551, -0.32001615, -0.10393709, -0.19797566, -0.07173848, -0.16539958, -0.18627303, -0.34935722, -0.08998916, -0.09269866, 0.05496755, -0.22377361, -0.30746487, -0.40261247, -0.07266827, -0.14542122, -0.24716005, -0.19542370, -0.16597138, -0.32833083, -0.32265884, -0.21511742, -0.39273145, -0.12489494, -0.32170416, 0.38055189, 0.56700529, 0.43426182, 0.18688983, 0.56535627, 0.40875971, -0.23618507, -0.06924141, -0.39717437, -0.01534132, 0.54381519, 0.44697083, -0.19840374, -0.41652715, -0.02156796, -0.26160130, 0.28010370, 0.07588197, -0.39921165, -0.00349165, -0.13794800, 0.04216801, 0.00462454, 0.09661736, -0.11358163, -0.18478503, 0.11650109, 0.07592190, -0.05277859, -0.18554434, -0.24989405, -0.22466673, -0.42361664, -0.33994455, -0.59030512, -0.46253069, 0.48391053, 0.11793517, 0.15746591, -0.03846927, 0.28859933, 0.40254288, 0.67795877, 0.08445535, 0.21835176, 0.02776803, -0.08915529, 0.06033502, -0.15419549, -0.25660718, -0.21468270, -0.44121819, -0.04786000, -0.08236171, 0.27032494, -0.22411164, -0.41692065, -0.32162829, -0.21676267, -0.08342121, 0.01127458, -0.28230781, -0.09195993, -0.16689069, 0.01988137, -0.07337585, -0.17297703, -0.32377279, -0.18143013, -0.34447701, -0.17756556, -0.15436067, 0.34274299, 0.40993776, -0.00876004, 0.03828634, -0.01915046, -0.18994260, 0.56248767, 0.37776308, 0.21528914, -0.00577262, -0.11921859, -0.00868422, 0.21681177, 0.24586469, 0.07957240, -0.12927155, -0.03535380, 0.10857776, 0.10799754, -0.09026772, 0.08852515, -0.07317442, -0.01373070, 0.19160066, -0.31857344, 0.09861418, 0.01388897, 0.05962740, 0.02800749, -0.06175853, -0.18300748, 0.16751353, -0.04349413, 0.09866046, -0.09342174, 0.01894125, -0.50768419, -0.55192056, -0.55369590, -0.24473244, -0.24985054, -0.04654010, -0.26075492, -0.15601273, 0.02642951, -0.13550113, 0.03468464, 0.17385161, -0.03417721, -0.08501821, 0.18808198, 0.19317892, 0.05808423, -0.08539766, 0.05423033, 0.23122243, 0.05342313, 0.16368405, 0.11512941, -0.13305170, 0.14849154, 0.16134979, -0.02753492, 0.07038166, 0.07364177, -0.05997370, -0.18655098, -0.24185353, -0.07629612, -0.04969021, 0.00225631, -0.05674416, -0.05198589, -0.25391582, -0.47678403, -0.25272868, -0.51600214, -0.44554587, 0.18276865, 0.16639863, 0.38323926, 0.34845102, 0.07233873, -0.46481059, 0.68100222, 0.59048313, 0.32509136, 0.32708749, 0.15159240, -0.16148976, 0.43708380, 0.39321114, 0.10748582, 0.39018754, 0.13494009, 0.00841805, -0.00557430, 0.19528189, 0.28265605, 0.18163036, 0.23193661, 0.18477402, 0.27323571, 0.20982577, 0.31197886, 0.02860632, 0.27061910, -0.11937200},
{0.51154584, 0.47109276, -0.14185918, -0.10564464, 0.06062284, 0.26104873, 0.17861486, 0.31922362, 0.20544629, 0.20568148, 0.05863725, -0.17226154, 0.12149579, 0.28193973, 0.36503088, 0.01494564, 0.10312409, -0.13845568, -0.19080991, 0.17381715, 0.37112282, 0.29766762, 0.09554882, 0.40249422, 0.05666692, -0.19195574, 0.24966588, 0.07792848, 0.03118317, 0.07602375, 0.12235779, 0.45792534, 0.43861173, 0.31419388, 0.17225586, -0.20934194, 0.50833444, -0.05255058, -0.14435352, 0.10335047, -0.23115524, -0.04900375, -0.04149048, 0.13511558, 0.14516417, -0.14796102, -0.04376656, 0.06142080, -0.55157289, -0.10513628, 0.20016420, 0.26093133, 0.56674059, 0.14460428, 0.01774832, 0.47558430, 0.29014247, 0.14108780, 0.18560710, -0.32495178, 0.52708775, 0.17267846, -0.53108225, -0.30367033, -0.27186826, -0.35382013, -0.45954939, -0.17055469, -0.08699338, 0.06022632, 0.08168228, 0.01131866, -0.06036931, 0.57493238, 0.02436809, 0.13622799, 0.18656202, 0.04796997, 0.06885573, 0.41137659, 0.22568055, -0.31922682, 0.04963725, 0.24774002, -0.02462538, 0.12008038, -0.11364352, 0.13512045, 0.18852601, 0.19953778, -0.03117622, 0.01419116, 0.25447584, -0.04450870, 0.15348634, 0.14785608, 0.03804074, -0.11024828, -0.17733450, 0.06945819, -0.24559167, -0.03878622, -0.24690084, 0.20654824, -0.03097850, 0.33035576, 0.03758847, -0.38960703, 0.24767471, -0.09848662, 0.18597199, 0.38372193, 0.12151270, 0.00465457, -0.04269504, 0.11688212, 0.06266764, 0.39301326, 0.25849951, 0.00380843, -0.18410490, -0.40910863, -0.09412641, -0.08531891, 0.27266636, 0.18610961, -0.48911906, -0.10838905, -0.12377193, -0.12673283, -0.01752569, 0.14387857, 0.35290491, 0.24391656, -0.17297795, 0.08912985, 0.02916399, -0.24959354, 0.78101594, -0.36981399, 0.29266793, 0.15124006, 0.22753336, 0.26318167, 0.33132800, 0.16076633, 0.19620652, 0.04206553, 0.25276334, -0.06749830, -0.42536095, 0.00092104, 0.02869950, 0.21512035, 0.26983309, 0.13744263, -0.34621371, -0.04479120, -0.17408254, 0.13255645, 0.42552721, 0.65252243, -0.18542292, 0.02039286, -0.06186144, 0.02669860, -0.21122981, 0.00617397, 0.20865653, 0.17058609, 0.04072484, -0.06537845, -0.08269612, 0.00013573, 0.05818624, 0.01271255, -0.03446972, 0.02548056, -0.08979365, -0.09383357, -0.15191549, -0.10433921, -0.28092727, -0.11371748, 0.21143921, -0.18200055, -0.17395787, -0.54481554, -0.23040854, -0.02962021, 0.14802325, 0.29709881, -0.30167321, -0.25425985, -0.17064590, -0.14525705, -0.23553127, 0.23284625, 0.23161262, 0.11743197, -0.12584755, -0.59556086, -0.30113208, -0.01190593, 0.09624952, 0.19519287, -0.22726902, -0.37271524, -0.25701901, -0.06877695, -0.26663417, 0.23126071, 0.45413222, 0.41344836, 0.19327886, 0.27737132},
{0.23686348, -0.33890938, -0.04548115, 0.34377694, 0.31807488, 0.12990441, 0.09662419, 0.19129799, 0.16674171, 0.02962783, 0.16903278, -0.08812339, 0.37633237, 0.09555812, 0.07304546, -0.25262365, -0.00237426, -0.36161308, 0.56003982, -0.12220123, -0.03020595, -0.31163943, -0.17525809, -0.14963169, -0.24996288, -0.08693799, -0.21593742, -0.15974557, -0.23520598, 0.08039950, -0.53324927, -0.55534134, -0.52340311, -0.36504172, -0.53761289, -0.06214444, 0.85063680, 0.30695436, 0.26612020, 0.16626525, -0.11404976, 0.19403888, 0.39180682, 0.21041165, 0.21213443, 0.24426024, 0.25551502, 0.28895871, 0.02047511, -0.27451232, -0.04174574, 0.17621072, 0.05219620, 0.47659793, -0.38418294, -0.25242313, 0.00895433, 0.02585155, 0.07074336, -0.25895415, -0.24476698, -0.12734995, 0.05744755, -0.11115863, 0.03157830, -0.37017557, -0.22096403, -0.45687859, -0.40665369, -0.54335089, -0.46937822, -0.44874531, 0.21332863, 0.73509719, 0.32728647, 0.53060694, 0.38919328, 0.09399023, -0.25587384, -0.02833328, 0.18818026, 0.13449111, 0.23088379, 0.10581506, -0.21858576, 0.17095345, 0.08546750, 0.05562861, -0.47593159, -0.01767612, -0.34386770, 0.46065356, 0.16109772, -0.03406572, -0.16974707, -0.20619886, 0.35642335, 0.43418387, -0.04319137, -0.02483075, -0.03311339, -0.30833269, 0.06126976, 0.13895722, 0.16863807, -0.28818103, -0.28145502, -0.18442086, 0.39893293, 0.29192861, -0.01349871, 0.23629858, 0.17455829, -0.04550679, 0.33764337, 0.04051508, -0.09984979, -0.02703342, 0.10738705, -0.43776736, 0.13787904, 0.02159733, 0.13487244, -0.14590437, 0.10936550, 0.22170692, 0.23502509, -0.23712798, -0.24121301, -0.06356054, 0.25079683, 0.29301514, -0.08277327, -0.13482852, 0.07171198, -0.00677770, 0.12114419, 0.33148026, -0.33643059, -0.20308663, -0.01384226, -0.26789906, 0.14724385, -0.30542792, 0.12808032, 0.13244250, 0.28047656, 0.24849278, -0.33773770, -0.35789418, -0.12312570, -0.22661010, -0.28777620, -0.05326767, -0.29408306, -0.67437082, -0.07247252, 0.17295323, 0.07246923, 0.12015209, -0.13153104, -0.43713522, -0.00093308, -0.00607666, 0.10714166, -0.05232459, -0.10937563, 0.20419172, 0.01162743, 0.23294518, 0.07011297, 0.04040110, 0.03397655, 0.09901002, 0.14789312, 0.02316736, -0.31373472, -0.13670741, -0.10043597, -0.08398035, -0.03129361, -0.07175200, -0.03263832, -0.57736155, -0.50361980, -0.30711893, -0.07553975, -0.21279526, -0.19953981, -0.31491581, -0.18124305, -0.45764995, -0.45579019, -0.19085047, -0.16296118, -0.00962037, 0.17839475, -0.07004845, -0.01343539, -0.05229299, 0.41535065, 0.32656899, 0.31013648, 0.38901907, 0.37083621, 0.21562271, 0.25041028, 0.31044004, 0.09813307, 0.33981567, 0.46272490, 0.05096168, 0.13687516, 0.18411750, 0.29869011, 0.11723238}
};
REAL lb1[LIN_1] = { -0.12493483, 0.03547196, 0.51309575, -0.50316967, -0.04626927, -0.14933551, -0.22356821, -0.03230110, 0.81362375, -0.13382365 };
//Output tensor
REAL l1[LIN_1];

/*Results tensor*/
#define CLASSES 10
static REAL res[CLASSES];
#endif
